#ifdef USE_SINGLE_PRECISION
typedef float fp;
#else
typedef double fp;
#endif

// This file has been generated by a Mathematica script.

namespace gauss {
    const fp gauss_x_1[1]={0};
    const fp gauss_x_2[2]={-0.5773502691896258,0.5773502691896258};
    const fp gauss_x_3[3]={-0.7745966692414834,0,0.7745966692414834};
    const fp gauss_x_4[4]={-0.8611363115940526,-0.3399810435848563,0.3399810435848563,0.8611363115940526};
    const fp gauss_x_5[5]={-0.9061798459386640,-0.5384693101056831,0,0.5384693101056831,0.9061798459386640};
    const fp gauss_x_6[6]={-0.9324695142031520,-0.6612093864662645,-0.2386191860831969,0.2386191860831969,0.6612093864662645,0.9324695142031520};
    const fp gauss_x_7[7]={-0.9491079123427585,-0.7415311855993944,-0.4058451513773972,0,0.4058451513773972,0.7415311855993944,0.9491079123427585};
    const fp gauss_x_8[8]={-0.9602898564975362,-0.7966664774136267,-0.5255324099163290,-0.1834346424956498,0.1834346424956498,0.5255324099163290,0.7966664774136267,0.9602898564975362};
    const fp gauss_x_9[9]={-0.9681602395076261,-0.8360311073266358,-0.6133714327005904,-0.3242534234038089,0,0.3242534234038089,0.6133714327005904,0.8360311073266358,0.9681602395076261};
    const fp gauss_x_10[10]={-0.9739065285171717,-0.8650633666889845,-0.6794095682990244,-0.4333953941292472,-0.1488743389816312,0.1488743389816312,0.4333953941292472,0.6794095682990244,0.8650633666889845,0.9739065285171717};
    const fp gauss_x_11[11]={-0.9782286581460570,-0.8870625997680953,-0.7301520055740493,-0.5190961292068118,-0.2695431559523450,0,0.2695431559523450,0.5190961292068118,0.7301520055740493,0.8870625997680953,0.9782286581460570};
    const fp gauss_x_12[12]={-0.9815606342467193,-0.9041172563704749,-0.7699026741943047,-0.5873179542866174,-0.3678314989981802,-0.1252334085114689,0.1252334085114689,0.3678314989981802,0.5873179542866174,0.7699026741943047,0.9041172563704749,0.9815606342467193};
    const fp gauss_x_13[13]={-0.9841830547185881,-0.9175983992229780,-0.8015780907333099,-0.6423493394403402,-0.4484927510364469,-0.2304583159551348,0,0.2304583159551348,0.4484927510364469,0.6423493394403402,0.8015780907333099,0.9175983992229780,0.9841830547185881};
    const fp gauss_x_14[14]={-0.9862838086968123,-0.9284348836635735,-0.8272013150697650,-0.6872929048116855,-0.5152486363581541,-0.3191123689278898,-0.1080549487073437,0.1080549487073437,0.3191123689278898,0.5152486363581541,0.6872929048116855,0.8272013150697650,0.9284348836635735,0.9862838086968123};
    const fp gauss_x_15[15]={-0.9879925180204854,-0.9372733924007059,-0.8482065834104272,-0.7244177313601700,-0.5709721726085388,-0.3941513470775634,-0.2011940939974345,0,0.2011940939974345,0.3941513470775634,0.5709721726085388,0.7244177313601700,0.8482065834104272,0.9372733924007059,0.9879925180204854};
    const fp gauss_x_16[16]={-0.9894009349916499,-0.9445750230732326,-0.8656312023878317,-0.7554044083550030,-0.6178762444026437,-0.4580167776572274,-0.2816035507792589,-0.09501250983763744,0.09501250983763744,0.2816035507792589,0.4580167776572274,0.6178762444026437,0.7554044083550030,0.8656312023878317,0.9445750230732326,0.9894009349916499};
    const fp gauss_x_17[17]={-0.9905754753144173,-0.9506755217687678,-0.8802391537269859,-0.7815140038968014,-0.6576711592166908,-0.5126905370864770,-0.3512317634538763,-0.1784841814958479,0,0.1784841814958479,0.3512317634538763,0.5126905370864770,0.6576711592166908,0.7815140038968014,0.8802391537269859,0.9506755217687678,0.9905754753144173};
    const fp gauss_x_18[18]={-0.9915651684209309,-0.9558239495713978,-0.8926024664975557,-0.8037049589725231,-0.6916870430603532,-0.5597708310739475,-0.4117511614628426,-0.2518862256915055,-0.08477501304173530,0.08477501304173530,0.2518862256915055,0.4117511614628426,0.5597708310739475,0.6916870430603532,0.8037049589725231,0.8926024664975557,0.9558239495713978,0.9915651684209309};
    const fp gauss_x_19[19]={-0.9924068438435844,-0.9602081521348300,-0.9031559036148179,-0.8227146565371428,-0.7209661773352294,-0.6005453046616810,-0.4645707413759609,-0.3165640999636298,-0.1603586456402254,0,0.1603586456402254,0.3165640999636298,0.4645707413759609,0.6005453046616810,0.7209661773352294,0.8227146565371428,0.9031559036148179,0.9602081521348300,0.9924068438435844};
    const fp gauss_x_20[20]={-0.9931285991850949,-0.9639719272779138,-0.9122344282513259,-0.8391169718222188,-0.7463319064601508,-0.6360536807265150,-0.5108670019508271,-0.3737060887154196,-0.2277858511416451,-0.07652652113349733,0.07652652113349733,0.2277858511416451,0.3737060887154196,0.5108670019508271,0.6360536807265150,0.7463319064601508,0.8391169718222188,0.9122344282513259,0.9639719272779138,0.9931285991850949};
    const fp* gauss_x[20] = {gauss_x_1, gauss_x_2, gauss_x_3, gauss_x_4, gauss_x_5, gauss_x_6, gauss_x_7, gauss_x_8, gauss_x_9, gauss_x_10, gauss_x_11, gauss_x_12, gauss_x_13, gauss_x_14, gauss_x_15, gauss_x_16, gauss_x_17, gauss_x_18, gauss_x_19, gauss_x_20};
    fp x(int i, int o) {
        return gauss_x[o-1][i];
    }
    // gauss points scaled to [0,1] (instead of [-1,1])
    fp x_scaled01(int i, int o) {
        return (x(i, o)+1.0)/2.0;
    }

    const fp gauss_w_1[1]={2.000000000000000};
    const fp gauss_w_2[2]={1.000000000000000,1.000000000000000};
    const fp gauss_w_3[3]={0.555555555555555,0.8888888888888889,0.555555555555555};
    const fp gauss_w_4[4]={0.347854845137454,0.652145154862546,0.652145154862546,0.347854845137454};
    const fp gauss_w_5[5]={0.23692688505619,0.47862867049937,0.5688888888888889,0.47862867049937,0.23692688505619};
    const fp gauss_w_6[6]={0.17132449237917,0.36076157304814,0.467913934572691,0.467913934572691,0.36076157304814,0.17132449237917};
    const fp gauss_w_7[7]={0.12948496616887,0.27970539148928,0.38183005050512,0.4179591836734694,0.38183005050512,0.27970539148928,0.12948496616887};
    const fp gauss_w_8[8]={0.10122853629038,0.2223810344534,0.31370664587789,0.362683783378362,0.362683783378362,0.31370664587789,0.2223810344534,0.10122853629038};
    const fp gauss_w_9[9]={0.0812743883616,0.1806481606949,0.2606106964029,0.31234707704000,0.3302393550012598,0.31234707704000,0.2606106964029,0.1806481606949,0.0812743883616};
    const fp gauss_w_10[10]={0.0666713443087,0.1494513491506,0.2190863625160,0.26926671931000,0.295524224714753,0.295524224714753,0.26926671931000,0.2190863625160,0.1494513491506,0.0666713443087};
    const fp gauss_w_11[11]={0.0556685671162,0.125580369465,0.186290210928,0.2331937645920,0.26280454451025,0.2729250867779006,0.26280454451025,0.2331937645920,0.186290210928,0.125580369465,0.0556685671162};
    const fp gauss_w_12[12]={0.0471753363865,0.106939325995,0.160078328543,0.2031674267231,0.23349253653835,0.249147045813403,0.249147045813403,0.23349253653835,0.2031674267231,0.160078328543,0.106939325995,0.0471753363865};
    const fp gauss_w_13[13]={0.040484004765,0.092121499838,0.138873510220,0.178145980762,0.2078160475369,0.22628318026290,0.2325515532308739,0.22628318026290,0.2078160475369,0.178145980762,0.138873510220,0.092121499838,0.040484004765};
    const fp gauss_w_14[14]={0.035119460332,0.08015808716,0.12151857069,0.157203167158,0.185538397478,0.20519846372130,0.215263853463158,0.215263853463158,0.20519846372130,0.185538397478,0.157203167158,0.12151857069,0.08015808716,0.035119460332};
    const fp gauss_w_15[15]={0.030753241996,0.07036604749,0.10715922047,0.13957067793,0.166269205817,0.1861610000156,0.19843148532711,0.2025782419255613,0.19843148532711,0.1861610000156,0.166269205817,0.13957067793,0.10715922047,0.07036604749,0.030753241996};
    const fp gauss_w_16[16]={0.02715245941,0.06225352394,0.09515851168,0.12462897126,0.14959598882,0.169156519395,0.18260341504492,0.189450610455068,0.189450610455068,0.18260341504492,0.169156519395,0.14959598882,0.12462897126,0.09515851168,0.06225352394,0.02715245941};
    const fp gauss_w_17[17]={0.02414830287,0.0554595294,0.0850361483,0.1118838472,0.13513636847,0.154045761077,0.1680041021565,0.17656270536699,0.1794464703562065,0.17656270536699,0.1680041021565,0.154045761077,0.13513636847,0.1118838472,0.0850361483,0.0554595294,0.02414830287};
    const fp gauss_w_18[18]={0.02161601353,0.0497145489,0.0764257303,0.1009420441,0.12255520671,0.14064291467,0.154684675126,0.16427648374583,0.169142382963144,0.169142382963144,0.16427648374583,0.154684675126,0.14064291467,0.12255520671,0.1009420441,0.0764257303,0.0497145489,0.02161601353};
    const fp gauss_w_19[19]={0.0194617882,0.0448142268,0.069044543,0.0914900216,0.1115666455,0.12875396254,0.142606702174,0.1527660420659,0.15896884339395,0.1610544498487837,0.15896884339395,0.1527660420659,0.142606702174,0.12875396254,0.1115666455,0.0914900216,0.069044543,0.0448142268,0.0194617882};
    const fp gauss_w_20[20]={0.0176140071,0.040601430,0.062672048,0.083276742,0.1019301198,0.1181945320,0.13168863845,0.142096109318,0.14917298647260,0.152753387130726,0.152753387130726,0.14917298647260,0.142096109318,0.13168863845,0.1181945320,0.1019301198,0.083276742,0.062672048,0.040601430,0.0176140071};
    const fp* gauss_w[20] = {gauss_w_1, gauss_w_2, gauss_w_3, gauss_w_4, gauss_w_5, gauss_w_6, gauss_w_7, gauss_w_8, gauss_w_9, gauss_w_10, gauss_w_11, gauss_w_12, gauss_w_13, gauss_w_14, gauss_w_15, gauss_w_16, gauss_w_17, gauss_w_18, gauss_w_19, gauss_w_20};

    fp w(int i, int o) {
        return gauss_w[o-1][i];
    }
}

